/* This is a standard TensorFlow Lite model file that has been converted into a
 C data array, so it can be easily compiled into a binary for devices that
 don't have a file system.
*/
#include "model.h"

// Keep model aligned to 8 bytes to guarantee aligned 64-bit accesses.

alignas(8) 


const unsigned char models_model_no_quant_tflite[] = {
  0x1c, 0x00, 0x00, 0x00, 0x54, 0x46, 0x4c, 0x33, 0x14, 0x00, 0x20, 0x00,
  0x1c, 0x00, 0x18, 0x00, 0x14, 0x00, 0x10, 0x00, 0x0c, 0x00, 0x00, 0x00,
  0x08, 0x00, 0x04, 0x00, 0x14, 0x00, 0x00, 0x00, 0x1c, 0x00, 0x00, 0x00,
  0x98, 0x00, 0x00, 0x00, 0xf0, 0x00, 0x00, 0x00, 0xe8, 0x0e, 0x00, 0x00,
  0xf8, 0x0e, 0x00, 0x00, 0x70, 0x16, 0x00, 0x00, 0x03, 0x00, 0x00, 0x00,
  0x01, 0x00, 0x00, 0x00, 0x10, 0x00, 0x00, 0x00, 0x00, 0x00, 0x0a, 0x00,
  0x10, 0x00, 0x0c, 0x00, 0x08, 0x00, 0x04, 0x00, 0x0a, 0x00, 0x00, 0x00,
  0x0c, 0x00, 0x00, 0x00, 0x1c, 0x00, 0x00, 0x00, 0x3c, 0x00, 0x00, 0x00,
  0x0f, 0x00, 0x00, 0x00, 0x73, 0x65, 0x72, 0x76, 0x69, 0x6e, 0x67, 0x5f,
  0x64, 0x65, 0x66, 0x61, 0x75, 0x6c, 0x74, 0x00, 0x01, 0x00, 0x00, 0x00,
  0x04, 0x00, 0x00, 0x00, 0x90, 0xff, 0xff, 0xff, 0x0d, 0x00, 0x00, 0x00,
  0x04, 0x00, 0x00, 0x00, 0x08, 0x00, 0x00, 0x00, 0x64, 0x65, 0x6e, 0x73,
  0x65, 0x5f, 0x31, 0x36, 0x00, 0x00, 0x00, 0x00, 0x01, 0x00, 0x00, 0x00,
  0x04, 0x00, 0x00, 0x00, 0xfa, 0xf0, 0xff, 0xff, 0x04, 0x00, 0x00, 0x00,
  0x0e, 0x00, 0x00, 0x00, 0x64, 0x65, 0x6e, 0x73, 0x65, 0x5f, 0x31, 0x33,
  0x5f, 0x69, 0x6e, 0x70, 0x75, 0x74, 0x00, 0x00, 0x02, 0x00, 0x00, 0x00,
  0x34, 0x00, 0x00, 0x00, 0x04, 0x00, 0x00, 0x00, 0xdc, 0xff, 0xff, 0xff,
  0x10, 0x00, 0x00, 0x00, 0x04, 0x00, 0x00, 0x00, 0x13, 0x00, 0x00, 0x00,
  0x43, 0x4f, 0x4e, 0x56, 0x45, 0x52, 0x53, 0x49, 0x4f, 0x4e, 0x5f, 0x4d,
  0x45, 0x54, 0x41, 0x44, 0x41, 0x54, 0x41, 0x00, 0x08, 0x00, 0x0c, 0x00,
  0x08, 0x00, 0x04, 0x00, 0x08, 0x00, 0x00, 0x00, 0x0f, 0x00, 0x00, 0x00,
  0x04, 0x00, 0x00, 0x00, 0x13, 0x00, 0x00, 0x00, 0x6d, 0x69, 0x6e, 0x5f,
  0x72, 0x75, 0x6e, 0x74, 0x69, 0x6d, 0x65, 0x5f, 0x76, 0x65, 0x72, 0x73,
  0x69, 0x6f, 0x6e, 0x00, 0x11, 0x00, 0x00, 0x00, 0xf4, 0x0d, 0x00, 0x00,
  0xec, 0x0d, 0x00, 0x00, 0xb0, 0x0d, 0x00, 0x00, 0x60, 0x0d, 0x00, 0x00,
  0xd8, 0x0c, 0x00, 0x00, 0xbc, 0x0c, 0x00, 0x00, 0x88, 0x0c, 0x00, 0x00,
  0x10, 0x0b, 0x00, 0x00, 0x80, 0x03, 0x00, 0x00, 0xb0, 0x00, 0x00, 0x00,
  0xa8, 0x00, 0x00, 0x00, 0xa0, 0x00, 0x00, 0x00, 0x98, 0x00, 0x00, 0x00,
  0x90, 0x00, 0x00, 0x00, 0x88, 0x00, 0x00, 0x00, 0x68, 0x00, 0x00, 0x00,
  0x04, 0x00, 0x00, 0x00, 0xba, 0xf1, 0xff, 0xff, 0x04, 0x00, 0x00, 0x00,
  0x54, 0x00, 0x00, 0x00, 0x0c, 0x00, 0x00, 0x00, 0x08, 0x00, 0x0e, 0x00,
  0x08, 0x00, 0x04, 0x00, 0x08, 0x00, 0x00, 0x00, 0x10, 0x00, 0x00, 0x00,
  0x24, 0x00, 0x00, 0x00, 0x00, 0x00, 0x06, 0x00, 0x08, 0x00, 0x04, 0x00,
  0x06, 0x00, 0x00, 0x00, 0x04, 0x00, 0x00, 0x00, 0x00, 0x00, 0x00, 0x00,
  0x00, 0x00, 0x0a, 0x00, 0x10, 0x00, 0x0c, 0x00, 0x08, 0x00, 0x04, 0x00,
  0x0a, 0x00, 0x00, 0x00, 0x01, 0x00, 0x00, 0x00, 0x02, 0x00, 0x00, 0x00,
  0x04, 0x00, 0x00, 0x00, 0x06, 0x00, 0x00, 0x00, 0x32, 0x2e, 0x31, 0x32,
  0x2e, 0x30, 0x00, 0x00, 0x1a, 0xf2, 0xff, 0xff, 0x04, 0x00, 0x00, 0x00,
  0x10, 0x00, 0x00, 0x00, 0x31, 0x2e, 0x35, 0x2e, 0x30, 0x00, 0x00, 0x00,
  0x00, 0x00, 0x00, 0x00, 0x00, 0x00, 0x00, 0x00, 0x74, 0xeb, 0xff, 0xff,
  0x78, 0xeb, 0xff, 0xff, 0x7c, 0xeb, 0xff, 0xff, 0x80, 0xeb, 0xff, 0xff,
  0x84, 0xeb, 0xff, 0xff, 0x4a, 0xf2, 0xff, 0xff, 0x04, 0x00, 0x00, 0x00,
  0xc0, 0x02, 0x00, 0x00, 0x4a, 0xa2, 0x5c, 0x3e, 0x81, 0xbb, 0x03, 0x3e,
  0x50, 0x69, 0x12, 0x3f, 0x4c, 0x55, 0x89, 0xbe, 0x82, 0x2a, 0x5e, 0xbe,
  0x35, 0x97, 0xe0, 0xbf, 0x80, 0xf1, 0xd1, 0xbe, 0x7d, 0xff, 0x90, 0xbd,
  0xb6, 0x20, 0x96, 0xbe, 0xc9, 0xbc, 0xd2, 0x3e, 0x89, 0x1d, 0xad, 0x3d,
  0xca, 0x2e, 0xb7, 0x3e, 0x72, 0x46, 0x38, 0xc0, 0xc2, 0x5f, 0xb0, 0xbc,
  0xb2, 0x2b, 0x32, 0xbe, 0x93, 0x89, 0xf1, 0xbf, 0x88, 0x4e, 0xb1, 0xbf,
  0x99, 0x6e, 0xa4, 0x3f, 0x2d, 0xc2, 0x7f, 0x3f, 0x28, 0x30, 0xdb, 0xbe,
  0xa9, 0x88, 0xc8, 0xbd, 0xe9, 0xb9, 0x93, 0x3e, 0x88, 0x5c, 0x5d, 0xbe,
  0x37, 0x5a, 0xca, 0xbe, 0xf7, 0xde, 0x81, 0x3e, 0x21, 0xe6, 0x47, 0xbd,
  0x4a, 0x88, 0xd3, 0x3b, 0x23, 0x9e, 0xad, 0x3e, 0x20, 0x2f, 0xaf, 0xbe,
  0xe3, 0xd0, 0x94, 0x3f, 0xad, 0x32, 0x90, 0xbe, 0x5e, 0x09, 0x96, 0xbf,
  0x12, 0xc2, 0x7c, 0x3f, 0x0c, 0x83, 0x4b, 0x3e, 0xc0, 0x8e, 0x70, 0xbf,
  0x8a, 0x01, 0xa2, 0xbe, 0xe0, 0x9a, 0x15, 0x3c, 0x72, 0x66, 0x8a, 0xbf,
  0xca, 0xf2, 0x67, 0xbe, 0xcc, 0x28, 0x8d, 0x3e, 0x58, 0xea, 0x43, 0xbe,
  0xd6, 0x6f, 0x5e, 0x3c, 0xe0, 0x2d, 0x64, 0x3e, 0x80, 0x9f, 0x82, 0xbe,
  0xa6, 0xbc, 0x04, 0xc0, 0x66, 0xcd, 0x87, 0xbf, 0x13, 0xfa, 0xfa, 0xbb,
  0xf9, 0x9d, 0xa1, 0x3e, 0xaf, 0x97, 0x72, 0xbf, 0xc4, 0x23, 0x0d, 0xbf,
  0xd7, 0xfe, 0xc6, 0xbe, 0x2e, 0x8d, 0xc9, 0xbe, 0x6a, 0x35, 0x87, 0xbb,
  0x34, 0x75, 0x05, 0xbf, 0x90, 0xc6, 0xcf, 0xbf, 0xc5, 0x93, 0x38, 0x3f,
  0x0a, 0x6a, 0x1b, 0xbe, 0x9c, 0x1c, 0xec, 0xbe, 0x31, 0xdd, 0xb3, 0xbe,
  0x69, 0xdb, 0x70, 0x3f, 0x6a, 0xf3, 0xbf, 0xbe, 0x55, 0xc2, 0xc7, 0xbe,
  0xc8, 0xcb, 0xc4, 0xbe, 0x8c, 0x4c, 0x19, 0xbf, 0x7b, 0x3f, 0xb1, 0x3e,
  0x1e, 0xc3, 0x3d, 0xbf, 0xf9, 0x97, 0x04, 0x3f, 0x2f, 0x72, 0xc9, 0x3e,
  0x8c, 0x01, 0xd3, 0x3e, 0xc2, 0x61, 0xe2, 0xbe, 0xe0, 0xac, 0xf4, 0xbe,
  0x16, 0xed, 0x5c, 0x3e, 0x38, 0x6f, 0x6f, 0x3d, 0xa1, 0x0e, 0xbb, 0xbd,
  0xd3, 0x84, 0x81, 0xbe, 0x50, 0x18, 0xef, 0x3d, 0x4e, 0xfc, 0x7e, 0xbf,
  0xbb, 0xcb, 0x3e, 0xbe, 0x6c, 0x23, 0xef, 0xbe, 0xe6, 0x8e, 0x4a, 0xbf,
  0x39, 0x6b, 0xcd, 0x3e, 0xa9, 0xae, 0x04, 0xbf, 0xe9, 0x2f, 0x6f, 0xbf,
  0x78, 0x76, 0x91, 0xbe, 0xa6, 0x69, 0x2b, 0x3d, 0x95, 0x5d, 0xf4, 0xbe,
  0xc9, 0x7e, 0xa2, 0xbe, 0x60, 0x1d, 0x0d, 0xbf, 0xec, 0xa6, 0x80, 0x3d,
  0xc5, 0xc6, 0x84, 0xbd, 0x5a, 0x6f, 0xda, 0xbe, 0x87, 0x24, 0x68, 0xbf,
  0x28, 0xf0, 0x8d, 0x3f, 0x46, 0x75, 0x7d, 0xbf, 0xb3, 0xe1, 0xd8, 0x3e,
  0x82, 0x9f, 0x86, 0x3f, 0xe7, 0x99, 0xbb, 0x3e, 0x1d, 0x82, 0x8a, 0xbe,
  0xcf, 0x6f, 0x1f, 0xbf, 0x58, 0x4d, 0x9d, 0xbd, 0x06, 0x55, 0xa4, 0x3e,
  0xd1, 0x84, 0x51, 0x3f, 0xe6, 0x5d, 0x64, 0x3f, 0xa4, 0xd9, 0x88, 0xbf,
  0xc6, 0xaf, 0xbb, 0xbe, 0x3d, 0x51, 0xd8, 0xbe, 0x09, 0xad, 0xc1, 0xbe,
  0xcb, 0xb5, 0x16, 0xbf, 0xac, 0xa9, 0x15, 0x3d, 0x76, 0x2e, 0xf9, 0x3c,
  0xfd, 0x72, 0x9f, 0x3e, 0x03, 0x96, 0x4f, 0xbf, 0xa3, 0xfb, 0xd3, 0x3d,
  0x44, 0x85, 0x41, 0x3f, 0x93, 0x61, 0x4e, 0x3d, 0x9e, 0x3b, 0xa6, 0xbc,
  0x4f, 0x48, 0x04, 0x3e, 0x25, 0xed, 0x88, 0xbe, 0xd1, 0xe1, 0x84, 0x3f,
  0xa4, 0x74, 0xea, 0xbe, 0x18, 0xc1, 0xe9, 0xbd, 0x92, 0x1d, 0x32, 0x3e,
  0xc1, 0x0f, 0x3a, 0xbe, 0x25, 0x94, 0x4c, 0xbe, 0x64, 0x73, 0xcf, 0xbf,
  0xa5, 0xc8, 0x2b, 0xbe, 0x24, 0x2f, 0x26, 0x3e, 0x8f, 0x28, 0x9b, 0xbf,
  0x72, 0x6e, 0x97, 0x3e, 0x1f, 0xb5, 0x31, 0xbf, 0x13, 0xdb, 0xa1, 0xbf,
  0x3c, 0x0f, 0xc0, 0x3e, 0x01, 0x5e, 0x93, 0x3e, 0x5e, 0x3d, 0x3a, 0x3e,
  0x9d, 0x71, 0x4f, 0x3f, 0xfa, 0xed, 0x39, 0xbf, 0x32, 0xf6, 0x45, 0xbe,
  0x22, 0xea, 0xc1, 0x3d, 0x61, 0xc5, 0xad, 0x3d, 0x88, 0x20, 0x91, 0xbf,
  0x68, 0x7a, 0x00, 0xbe, 0x37, 0xf2, 0xca, 0xbf, 0xda, 0xb3, 0xcb, 0x3e,
  0x07, 0x72, 0xd8, 0x3e, 0xa7, 0x5a, 0xf4, 0xbd, 0x87, 0xbd, 0xbe, 0xbf,
  0xb5, 0x38, 0xd4, 0x3e, 0xc6, 0x5f, 0x80, 0xbe, 0x7f, 0x80, 0x4e, 0x3e,
  0x32, 0x96, 0x89, 0xbc, 0x80, 0xff, 0x82, 0xbd, 0xd0, 0x65, 0xa1, 0xbe,
  0x58, 0xc2, 0x96, 0xbe, 0x1d, 0xa0, 0x83, 0x3e, 0x88, 0x28, 0x80, 0x3e,
  0x93, 0x44, 0x74, 0xbd, 0x1a, 0x5d, 0x7f, 0xbe, 0xdf, 0x87, 0x21, 0xbd,
  0x7a, 0x8e, 0x92, 0x3e, 0x9a, 0xca, 0xc2, 0xbb, 0xdc, 0xa3, 0x73, 0xbf,
  0xe6, 0x0c, 0xce, 0xbe, 0x53, 0x7a, 0xcd, 0xbe, 0x3d, 0x0b, 0x96, 0xbd,
  0xd3, 0x98, 0x31, 0x3c, 0x32, 0x76, 0xbf, 0xbe, 0x5a, 0x1d, 0x4f, 0xbf,
  0x2c, 0xd3, 0x8b, 0x3e, 0x97, 0xe8, 0x91, 0x3e, 0x91, 0x89, 0xeb, 0xbe,
  0x84, 0x93, 0x8c, 0x3d, 0x8c, 0x19, 0x4d, 0x3e, 0xca, 0x16, 0x66, 0x3e,
  0xe8, 0x99, 0xb1, 0xbf, 0x6a, 0x02, 0xae, 0x3e, 0x40, 0x46, 0x99, 0x3f,
  0x16, 0xf5, 0xff, 0xff, 0x04, 0x00, 0x00, 0x00, 0x80, 0x07, 0x00, 0x00,
  0xaa, 0xb6, 0x94, 0xbf, 0xa2, 0x18, 0x3c, 0x3e, 0x62, 0x3a, 0xac, 0x84,
  0x1d, 0xef, 0x17, 0x3f, 0x2e, 0x8b, 0x7b, 0xbe, 0x9c, 0x18, 0x27, 0x3d,
  0x67, 0xba, 0xa7, 0xbe, 0xfd, 0xc7, 0xb6, 0xbe, 0x89, 0xe8, 0x82, 0xbe,
  0xae, 0xb5, 0xa8, 0x3e, 0x48, 0x38, 0x1e, 0xbf, 0xa4, 0xf3, 0x54, 0xbf,
  0xf7, 0x11, 0x20, 0x3f, 0x70, 0xf9, 0xa0, 0xbe, 0xb9, 0x16, 0x45, 0x83,
  0xa2, 0x0c, 0xae, 0x3e, 0x8c, 0x0b, 0x12, 0x83, 0x90, 0xa4, 0x87, 0x04,
  0x51, 0xbb, 0x84, 0x3e, 0xde, 0xd3, 0x6a, 0xbe, 0xf1, 0x89, 0x87, 0x3f,
  0xe8, 0x33, 0x6a, 0xbe, 0x11, 0xb6, 0x2e, 0x04, 0xb3, 0x9c, 0x2b, 0x3f,
  0xd8, 0x6b, 0xce, 0x3e, 0xee, 0x86, 0x50, 0x86, 0x00, 0x26, 0x86, 0x04,
  0xaa, 0xd5, 0x06, 0x3f, 0xcc, 0x03, 0xda, 0x3e, 0xbd, 0x88, 0x07, 0x3f,
  0x17, 0xf0, 0xf8, 0xbd, 0x49, 0xde, 0x66, 0xbe, 0x4f, 0x6a, 0xeb, 0x04,
  0x8a, 0x4b, 0x19, 0x3f, 0x1b, 0xca, 0x8d, 0xbe, 0xc5, 0x76, 0x56, 0xbe,
  0x87, 0x9c, 0x07, 0x3f, 0xb1, 0xe3, 0xe8, 0x3d, 0x46, 0x7d, 0xe4, 0xbe,
  0x43, 0x7c, 0xd6, 0xbe, 0x6d, 0xfa, 0xe5, 0x3e, 0xee, 0xe9, 0xcf, 0xbd,
  0xb9, 0xfa, 0xe6, 0xbe, 0x26, 0x84, 0x99, 0xbe, 0x79, 0xe8, 0x9d, 0x84,
  0x53, 0x5f, 0x61, 0xbe, 0x49, 0x6e, 0xe9, 0x83, 0x58, 0x5b, 0xa6, 0x84,
  0x74, 0xa4, 0xf7, 0x3e, 0x8e, 0x48, 0x9d, 0x3e, 0x0b, 0x61, 0xe0, 0x3c,
  0xac, 0x19, 0x30, 0x3f, 0x4b, 0xdb, 0x1c, 0x83, 0x0a, 0x6c, 0x8f, 0x3e,
  0xe2, 0x57, 0x89, 0x3d, 0x4f, 0x1e, 0x80, 0x84, 0xc6, 0x53, 0xae, 0x84,
  0x08, 0x9c, 0xe0, 0xbe, 0x51, 0x9b, 0x0c, 0xbf, 0x50, 0x1a, 0xd1, 0x3e,
  0xda, 0x65, 0x8a, 0x3e, 0x03, 0x08, 0xa4, 0xbe, 0x77, 0x51, 0xe5, 0x88,
  0xa2, 0x3b, 0x8e, 0x3e, 0xcc, 0x5f, 0x00, 0xbe, 0x0d, 0x18, 0x24, 0x3d,
  0xf0, 0xf9, 0x14, 0x3f, 0xa6, 0xd0, 0x91, 0x3e, 0x75, 0xf9, 0xdc, 0xbd,
  0x5e, 0x63, 0x55, 0xbe, 0xc0, 0xaa, 0x23, 0x3f, 0xad, 0x47, 0xbc, 0x3e,
  0x16, 0x15, 0xab, 0xbe, 0x70, 0xfb, 0x14, 0xbc, 0xac, 0x0e, 0x0a, 0x04,
  0x69, 0x5f, 0x00, 0xbe, 0xda, 0xb8, 0xd7, 0x84, 0x13, 0x97, 0x2e, 0x83,
  0xb0, 0x60, 0xf4, 0x3e, 0x4b, 0xa1, 0xef, 0x3e, 0x7f, 0x81, 0xf6, 0xbe,
  0xff, 0xa1, 0x27, 0x3f, 0xba, 0xbf, 0x08, 0x84, 0x65, 0x11, 0x3d, 0x3d,
  0x12, 0x5f, 0xb9, 0x3e, 0xbd, 0xb9, 0xa7, 0x04, 0x64, 0x6b, 0xca, 0x84,
  0x9d, 0xa0, 0x99, 0xbe, 0x21, 0xf8, 0xce, 0xbe, 0x7f, 0x1e, 0xf5, 0x3e,
  0x3e, 0x30, 0x9f, 0x02, 0x03, 0xf3, 0x06, 0x84, 0x78, 0xb8, 0x7d, 0x04,
  0x59, 0x93, 0x4e, 0x04, 0x2c, 0x9d, 0xf2, 0x81, 0xee, 0xf0, 0x99, 0x84,
  0xe7, 0xcb, 0xd1, 0x04, 0x42, 0xa4, 0x51, 0x84, 0x55, 0x28, 0x86, 0x82,
  0xd6, 0x52, 0x6d, 0x04, 0x26, 0x93, 0x90, 0x84, 0x40, 0x55, 0xc1, 0x03,
  0x5e, 0x24, 0xb7, 0x04, 0x45, 0x14, 0x9e, 0x03, 0xd0, 0x3e, 0x30, 0x84,
  0xa0, 0xee, 0xab, 0x84, 0x18, 0x2b, 0x7f, 0x04, 0x02, 0x47, 0xf6, 0x02,
  0x27, 0xac, 0xd9, 0x02, 0xe2, 0xe2, 0x46, 0x04, 0x69, 0xe4, 0xca, 0x02,
  0x94, 0xa4, 0xce, 0x84, 0xeb, 0x15, 0xc2, 0x03, 0x24, 0x88, 0x82, 0x84,
  0x28, 0x00, 0xbe, 0x84, 0xae, 0x6a, 0x3a, 0x04, 0x59, 0x2b, 0xef, 0x03,
  0xd4, 0x47, 0xfa, 0x03, 0x14, 0xcf, 0xf4, 0x03, 0x07, 0x4c, 0xcf, 0x84,
  0xdf, 0x19, 0x3a, 0x03, 0x7e, 0xe6, 0xbb, 0x84, 0x3e, 0x17, 0x2b, 0x84,
  0x9d, 0x45, 0x92, 0x03, 0x14, 0xff, 0xbe, 0x04, 0x17, 0x94, 0xe4, 0x91,
  0xf9, 0x8a, 0x20, 0x83, 0xbe, 0x25, 0x2a, 0x84, 0x1f, 0xd0, 0x1d, 0x8d,
  0xfd, 0x17, 0x6f, 0x84, 0xcc, 0xfb, 0x71, 0x84, 0x45, 0x5d, 0x47, 0x1d,
  0xb5, 0x43, 0x9a, 0x03, 0xf8, 0x24, 0xcd, 0x83, 0xd6, 0x44, 0x73, 0x03,
  0xb8, 0x12, 0x57, 0x84, 0xf5, 0x5d, 0xa7, 0x84, 0x40, 0xc6, 0xf5, 0x04,
  0xb4, 0x43, 0xe9, 0x04, 0xad, 0xa7, 0x0f, 0x04, 0xd7, 0xb2, 0x3c, 0x03,
  0xa0, 0xbd, 0xdd, 0x83, 0x39, 0xb8, 0x0a, 0x04, 0x10, 0x6d, 0xf5, 0x82,
  0x95, 0x12, 0x66, 0x04, 0xa9, 0xb7, 0x2c, 0x84, 0x67, 0x7f, 0x41, 0x04,
  0xce, 0x63, 0xaa, 0x84, 0xff, 0xed, 0x62, 0x83, 0xc4, 0x4e, 0x78, 0x84,
  0xcd, 0xa2, 0xf6, 0x3e, 0x2c, 0x26, 0x0d, 0xbf, 0xd5, 0x48, 0xbd, 0x03,
  0xd4, 0x5d, 0xf6, 0x3d, 0xf5, 0x09, 0x8f, 0xbe, 0xba, 0x16, 0x97, 0x3d,
  0xf5, 0x38, 0xc4, 0x3e, 0xa6, 0xa8, 0x1e, 0x3f, 0x4e, 0xa1, 0x8b, 0xbe,
  0xd7, 0xf5, 0x2b, 0xbf, 0xd9, 0xf4, 0x79, 0x3d, 0x3f, 0x8a, 0xa9, 0x3e,
  0x80, 0xd7, 0xdb, 0x3d, 0xfd, 0x6b, 0x36, 0xbe, 0xd0, 0xb3, 0x34, 0x84,
  0x55, 0xbf, 0x20, 0xbf, 0x4a, 0x5a, 0x80, 0x84, 0x32, 0xdf, 0x15, 0x84,
  0xf9, 0x58, 0x8a, 0x3e, 0x07, 0x1d, 0x3d, 0xbc, 0xf2, 0x5d, 0x2f, 0x3e,
  0x1c, 0xf7, 0x98, 0x3e, 0xc8, 0x3f, 0xab, 0x84, 0xdb, 0x3c, 0x38, 0x3e,
  0x92, 0xb8, 0x9e, 0x3e, 0xed, 0x5c, 0x99, 0x04, 0x71, 0xce, 0x2d, 0x84,
  0xf3, 0x25, 0x0a, 0x3f, 0x24, 0x72, 0xf3, 0x3e, 0x10, 0x02, 0xe4, 0x3e,
  0x79, 0xd1, 0x02, 0xbf, 0x43, 0x29, 0x11, 0xbf, 0x32, 0xf5, 0x57, 0x84,
  0x99, 0x24, 0x55, 0x3e, 0xa6, 0x18, 0x82, 0xbe, 0xc4, 0xb5, 0x05, 0xbd,
  0x6d, 0x4c, 0xb8, 0x3e, 0xfc, 0xab, 0xbf, 0x3b, 0x87, 0x97, 0x04, 0xbf,
  0xfb, 0x17, 0xf7, 0xbe, 0x07, 0x0f, 0xf1, 0xbe, 0x1e, 0xfa, 0xdf, 0xbe,
  0x4d, 0x20, 0xee, 0x3e, 0x0d, 0x9d, 0xef, 0xbe, 0x78, 0xf9, 0x92, 0x04,
  0x32, 0x1f, 0x0e, 0xbf, 0x3f, 0x35, 0x9e, 0x04, 0x76, 0x11, 0x72, 0x04,
  0x2b, 0x7e, 0xb2, 0x3e, 0x8a, 0x81, 0x5e, 0xbe, 0xfd, 0x77, 0x84, 0x3f,
  0xf3, 0xee, 0x46, 0x3e, 0xa9, 0xd8, 0xe5, 0x04, 0xe9, 0xe9, 0x4d, 0x3f,
  0x01, 0x2e, 0x0b, 0x3f, 0x2f, 0x0d, 0xd0, 0x84, 0x9e, 0x8f, 0x93, 0x04,
  0x9d, 0xb3, 0x44, 0x3f, 0x8d, 0xac, 0xeb, 0x3e, 0xeb, 0x06, 0x99, 0x3e,
  0x5f, 0xb2, 0xcd, 0x3e, 0x51, 0x82, 0x47, 0x3f, 0x8b, 0xc4, 0xe7, 0x84,
  0x43, 0x6c, 0x5f, 0x3e, 0x81, 0x47, 0x18, 0x3f, 0x62, 0xcd, 0x08, 0x3f,
  0x60, 0x7d, 0x88, 0xbd, 0x5a, 0x84, 0xa1, 0x3d, 0x52, 0x00, 0x3b, 0x3f,
  0xc8, 0xb9, 0x41, 0x3f, 0x5e, 0xca, 0x99, 0x3e, 0x6c, 0xe3, 0xe7, 0x3e,
  0x78, 0xdb, 0x23, 0xbd, 0x60, 0x65, 0x2c, 0x3f, 0x60, 0x69, 0xa9, 0x04,
  0xcb, 0xbf, 0x5a, 0x3f, 0x1b, 0xb3, 0x52, 0x04, 0x8c, 0xf1, 0x36, 0x84,
  0x7c, 0x5a, 0x99, 0x3e, 0x08, 0x92, 0x69, 0x3e, 0x68, 0xd3, 0x37, 0xbe,
  0xce, 0x3c, 0xcd, 0x3c, 0x9f, 0x71, 0x84, 0x83, 0x5e, 0x19, 0x87, 0xbd,
  0x23, 0x7f, 0x8d, 0x3e, 0x8b, 0x20, 0xa2, 0x04, 0xa0, 0x5e, 0xb7, 0x84,
  0x6c, 0x3b, 0xf2, 0xbe, 0x10, 0x79, 0x5b, 0xbe, 0x64, 0x15, 0x94, 0x3d,
  0x77, 0x35, 0xdc, 0x97, 0x62, 0xab, 0xf1, 0x96, 0x33, 0xa8, 0x4f, 0x84,
  0x75, 0x5e, 0x1a, 0xb2, 0x98, 0xf5, 0x5f, 0x96, 0x1d, 0x0d, 0x35, 0x1d,
  0x7f, 0x5a, 0x86, 0xae, 0xd2, 0x0d, 0x86, 0x17, 0xaf, 0x98, 0x03, 0x16,
  0x91, 0x94, 0x2b, 0x97, 0xdc, 0x41, 0xb0, 0x17, 0x10, 0x1a, 0x8c, 0x9a,
  0x16, 0x3b, 0x92, 0xad, 0x5c, 0xff, 0xec, 0x15, 0x0d, 0x10, 0x87, 0x04,
  0x1b, 0x26, 0x07, 0x17, 0x96, 0xdf, 0xa9, 0x84, 0xd8, 0xfa, 0xd3, 0x04,
  0xf5, 0xe5, 0x92, 0xb2, 0x13, 0x0a, 0x97, 0x97, 0xed, 0x30, 0xe8, 0xb5,
  0x98, 0x58, 0x27, 0xaa, 0x59, 0xfc, 0x82, 0x04, 0x7f, 0x68, 0x70, 0xb6,
  0x67, 0x72, 0x5a, 0xb6, 0xec, 0x80, 0x72, 0x04, 0x20, 0xd9, 0xa6, 0x04,
  0x3d, 0x30, 0x48, 0xb1, 0x77, 0x87, 0x13, 0xaa, 0xfd, 0x3d, 0xf4, 0xb5,
  0x98, 0xe6, 0xea, 0x02, 0xd2, 0x38, 0xb0, 0x84, 0x7d, 0xd4, 0x40, 0x04,
  0x8d, 0x6f, 0x35, 0x03, 0xa5, 0xfd, 0x53, 0x84, 0x23, 0x2d, 0xcd, 0x03,
  0x17, 0xa9, 0xe8, 0x04, 0x2c, 0x99, 0x5d, 0x04, 0x9b, 0x61, 0x1c, 0x04,
  0x79, 0x73, 0xa0, 0x04, 0xbe, 0xc6, 0xd1, 0x04, 0x08, 0xae, 0x69, 0x03,
  0x8b, 0xe4, 0x94, 0x83, 0x30, 0x51, 0xa2, 0x83, 0x50, 0x4b, 0xa1, 0x04,
  0xb0, 0x23, 0xf6, 0x84, 0x38, 0xae, 0x1d, 0x04, 0x87, 0x82, 0x60, 0x04,
  0x5f, 0x7a, 0x5a, 0x04, 0x95, 0x04, 0x37, 0x84, 0x17, 0x79, 0x2d, 0x84,
  0xf1, 0xd3, 0x98, 0x04, 0xae, 0xf2, 0xa4, 0x03, 0xee, 0xef, 0x93, 0x84,
  0x72, 0x10, 0x6a, 0x84, 0x8e, 0x7b, 0x1f, 0x04, 0x2b, 0xb7, 0x3d, 0x84,
  0x51, 0x46, 0x64, 0x84, 0x7e, 0xd8, 0xc6, 0x04, 0x1c, 0x38, 0xa4, 0x03,
  0x28, 0x20, 0xde, 0x84, 0x9b, 0x82, 0x45, 0x84, 0xd5, 0x9b, 0x79, 0x83,
  0x8c, 0x30, 0xb0, 0x83, 0x34, 0x76, 0xea, 0x83, 0xd9, 0x40, 0x87, 0x84,
  0x8e, 0xda, 0x79, 0x03, 0xe0, 0x9b, 0x89, 0x84, 0xad, 0x28, 0x55, 0x04,
  0xca, 0x0b, 0xa1, 0x04, 0x28, 0x63, 0xdb, 0x84, 0x26, 0x0f, 0x13, 0x84,
  0xad, 0xaf, 0x40, 0x84, 0xe2, 0x82, 0x81, 0x84, 0x24, 0x1b, 0x16, 0x04,
  0x2d, 0x9d, 0x00, 0x83, 0xe8, 0x35, 0x07, 0x04, 0xb9, 0xe8, 0x16, 0x04,
  0x14, 0x4c, 0x66, 0x01, 0x8f, 0x71, 0x41, 0x04, 0x8b, 0xfa, 0x90, 0x04,
  0xe9, 0xa4, 0xc1, 0x04, 0xa7, 0xa7, 0x2a, 0x04, 0xb3, 0x64, 0x3c, 0x84,
  0x60, 0x04, 0x21, 0x84, 0xb5, 0xc3, 0x2b, 0x84, 0xf0, 0xaf, 0xab, 0x04,
  0xd7, 0x0f, 0x6f, 0x84, 0xfa, 0x10, 0x80, 0x84, 0x5d, 0xd3, 0xd1, 0x84,
  0x7c, 0x51, 0x0b, 0x3f, 0xbb, 0x22, 0x29, 0x3f, 0x05, 0x6b, 0xce, 0xa2,
  0xc6, 0x07, 0xa0, 0x3e, 0x85, 0x8b, 0x1f, 0x3f, 0x0e, 0x3c, 0xea, 0x3e,
  0x13, 0x1e, 0xdb, 0x3d, 0x28, 0x31, 0xda, 0x3e, 0xda, 0x50, 0x06, 0x3f,
  0xb4, 0x76, 0xce, 0x3e, 0x4a, 0xff, 0xfc, 0x3e, 0x6f, 0xeb, 0xf2, 0x3e,
  0xa8, 0xcd, 0xaa, 0xbe, 0xee, 0x22, 0x16, 0x3f, 0x2d, 0xbc, 0x6a, 0x83,
  0x95, 0x7e, 0x10, 0x3f, 0xe4, 0x1d, 0x14, 0x03, 0x69, 0xc3, 0xc0, 0x84,
  0xa2, 0x4b, 0x9b, 0x3e, 0xe2, 0x49, 0xe2, 0x3e, 0x66, 0xdb, 0x1d, 0xbf,
  0x75, 0x52, 0xc9, 0x3d, 0xd4, 0x22, 0x5d, 0x84, 0xff, 0xf8, 0x2f, 0xbe,
  0x23, 0xe7, 0xca, 0x3e, 0x01, 0xbe, 0x65, 0x83, 0x6f, 0x03, 0x9d, 0x84,
  0x06, 0x6d, 0x16, 0xbf, 0x64, 0x5c, 0xa8, 0xbe, 0x3b, 0x93, 0xd2, 0x3e,
  0xcd, 0x2e, 0x5d, 0x3f, 0x02, 0xdb, 0x09, 0x3d, 0xce, 0x1f, 0xd3, 0x02,
  0x06, 0xef, 0xe4, 0xbe, 0xe0, 0xf1, 0xbd, 0xbe, 0x12, 0x8b, 0x41, 0x3e,
  0xb4, 0x0a, 0x9d, 0x3e, 0x13, 0xa9, 0x15, 0x3f, 0x82, 0xa3, 0x52, 0x3c,
  0x8a, 0x38, 0xa7, 0x3d, 0x4b, 0x18, 0xb3, 0xbe, 0x8f, 0x36, 0xe7, 0x3e,
  0x08, 0xde, 0xc9, 0x3e, 0x7c, 0xbc, 0x99, 0x3c, 0x34, 0x68, 0x42, 0x04,
  0x80, 0x84, 0x50, 0x3d, 0x79, 0x8c, 0xb1, 0x03, 0x1f, 0x89, 0xa4, 0x04,
  0x1f, 0xcd, 0xb6, 0xbe, 0xe9, 0x8d, 0x88, 0xbe, 0xc0, 0x34, 0x15, 0x3e,
  0x87, 0x34, 0xae, 0x3d, 0xc1, 0xe0, 0x4c, 0x04, 0xf7, 0x04, 0xda, 0xbd,
  0x36, 0xa8, 0x7d, 0x3e, 0xdf, 0xa0, 0x20, 0x18, 0xc2, 0x75, 0x97, 0x83,
  0xe2, 0xa5, 0x13, 0x3f, 0x06, 0x5f, 0x1c, 0x3f, 0x1c, 0x59, 0xdb, 0xbe,
  0xbf, 0x0d, 0x24, 0x3e, 0xfd, 0xb7, 0xf1, 0xbe, 0x0e, 0x3f, 0xd5, 0x83,
  0x1d, 0x4a, 0x87, 0x3e, 0xd2, 0xc4, 0xfd, 0xbd, 0x99, 0xf1, 0x15, 0x3e,
  0x0c, 0x17, 0x46, 0x3f, 0x00, 0x34, 0xbf, 0x3e, 0xbf, 0xd2, 0x60, 0xbe,
  0xf6, 0x34, 0x0d, 0xbf, 0x90, 0x5c, 0xdd, 0x3e, 0x00, 0xc8, 0xc5, 0x3e,
  0x50, 0x4d, 0xf7, 0xbe, 0xd3, 0x12, 0xaf, 0xbd, 0x10, 0x48, 0x65, 0x04,
  0xd8, 0x48, 0xbd, 0xbe, 0x56, 0x1a, 0x89, 0x03, 0x88, 0xf1, 0x2c, 0x04,
  0x6f, 0x6c, 0x93, 0x3e, 0xd4, 0x2b, 0x3d, 0x3e, 0x34, 0x08, 0x5a, 0xbe,
  0x32, 0x7e, 0xf9, 0x3e, 0x4e, 0xf4, 0xb6, 0x84, 0xdc, 0xf5, 0x0c, 0x3e,
  0x7a, 0x7d, 0xf3, 0x3e, 0x72, 0x73, 0x05, 0x04, 0xbb, 0x93, 0x0b, 0x84,
  0x59, 0x9c, 0x6a, 0xbe, 0x6f, 0x2c, 0x7b, 0xbe, 0x7a, 0x56, 0x1e, 0x3e,
  0x62, 0x02, 0xb7, 0xa8, 0xb7, 0xa9, 0x65, 0xae, 0x28, 0x09, 0xde, 0x04,
  0x9b, 0x10, 0x29, 0xaa, 0xf4, 0x07, 0x1a, 0xa4, 0x88, 0x03, 0x20, 0xb1,
  0x07, 0x6c, 0xa2, 0xad, 0x70, 0xec, 0xf7, 0xa7, 0xef, 0xb6, 0x0f, 0xac,
  0x1a, 0x49, 0x6b, 0xaf, 0xc9, 0x98, 0x46, 0xb0, 0xa6, 0x6f, 0xc6, 0x32,
  0xe2, 0xaf, 0x42, 0xa9, 0x83, 0x00, 0x48, 0xa8, 0x2d, 0x55, 0x58, 0x84,
  0x0a, 0x1d, 0x6d, 0xb0, 0xb5, 0xe0, 0xb7, 0x84, 0x12, 0x99, 0x9a, 0x03,
  0x42, 0xd3, 0x84, 0xad, 0x7a, 0xc3, 0xbc, 0xa5, 0x70, 0x30, 0x67, 0x9b,
  0x06, 0x3d, 0x70, 0xa4, 0x37, 0x1e, 0x97, 0x03, 0x44, 0x62, 0xeb, 0xaf,
  0x79, 0x42, 0xf8, 0xb4, 0xb5, 0x57, 0x35, 0x04, 0x6d, 0x6e, 0xaa, 0x83,
  0xf3, 0xa1, 0x78, 0x13, 0xbc, 0xa0, 0x28, 0xa5, 0x29, 0x8b, 0x31, 0xb3,
  0x98, 0x00, 0x18, 0x3d, 0x5f, 0x33, 0xae, 0x3e, 0x91, 0x41, 0x0e, 0x84,
  0x00, 0xce, 0xcf, 0xbe, 0x77, 0x32, 0xed, 0xbe, 0x36, 0x03, 0x86, 0x3e,
  0x5f, 0x21, 0x02, 0xbf, 0xaa, 0x3b, 0x16, 0x3e, 0x78, 0x70, 0xde, 0x3d,
  0xbf, 0x70, 0x08, 0x3f, 0xcd, 0x3a, 0xdb, 0xbe, 0xc7, 0xaf, 0x76, 0xbe,
  0x0f, 0x7e, 0x36, 0x3f, 0x18, 0x00, 0x1a, 0x3c, 0xdf, 0x54, 0xe5, 0x03,
  0x45, 0x5f, 0xb0, 0x3e, 0xff, 0x59, 0x6c, 0x84, 0x28, 0x87, 0xee, 0x82,
  0xdf, 0x20, 0x2c, 0xbe, 0xad, 0x23, 0xd8, 0xbe, 0xb9, 0xc4, 0xe9, 0x3e,
  0xf4, 0x56, 0xbd, 0xbe, 0xea, 0xf4, 0x52, 0x04, 0x06, 0x58, 0xe5, 0xbd,
  0x35, 0x50, 0x46, 0x3e, 0x2d, 0x72, 0x17, 0x83, 0x83, 0x32, 0xa1, 0x83,
  0x5b, 0x9a, 0xf0, 0x3e, 0xbc, 0x02, 0x3f, 0x3f, 0x0d, 0xb3, 0xf1, 0xbe,
  0xa2, 0xfc, 0xff, 0xff, 0x04, 0x00, 0x00, 0x00, 0x68, 0x01, 0x00, 0x00,
  0xa3, 0x4b, 0x6b, 0x3e, 0xb2, 0x3f, 0xab, 0xbe, 0x22, 0x5c, 0x88, 0x3f,
  0x41, 0xdc, 0xc7, 0x3d, 0x01, 0xa0, 0x32, 0xbf, 0x6f, 0x6f, 0x3c, 0x3f,
  0x7e, 0xb6, 0x9d, 0x33, 0x22, 0xcd, 0xb6, 0x83, 0xec, 0x73, 0x6e, 0x84,
  0x8b, 0x27, 0x02, 0x3f, 0x0e, 0x67, 0xaa, 0x3e, 0x35, 0x43, 0xee, 0xbe,
  0x5f, 0xfc, 0x07, 0x3f, 0x70, 0xcd, 0x39, 0xbf, 0x69, 0xb8, 0xb5, 0x3e,
  0x50, 0xe0, 0xab, 0x3e, 0xa3, 0x30, 0xee, 0xbd, 0x11, 0x70, 0x2f, 0x3f,
  0x2c, 0x7d, 0x55, 0x3f, 0xf2, 0x96, 0x47, 0x3f, 0xb3, 0xa7, 0x0e, 0xbf,
  0xa8, 0xea, 0xfc, 0x3e, 0xca, 0xff, 0xa2, 0x3e, 0xe3, 0xa8, 0x23, 0x3f,
  0x50, 0x0b, 0x6c, 0x3e, 0xfc, 0x21, 0x3f, 0xbf, 0x31, 0x80, 0x2f, 0x3f,
  0xa3, 0x0d, 0xc4, 0xbc, 0xa4, 0x13, 0x1b, 0xbf, 0xb0, 0x3d, 0x2f, 0x3f,
  0x59, 0x4e, 0x88, 0x3f, 0xac, 0x3d, 0x15, 0xbd, 0xfc, 0xcf, 0x02, 0x3b,
  0x98, 0xaf, 0x3b, 0x3f, 0xee, 0x0c, 0xf6, 0xbe, 0x36, 0x81, 0x15, 0x3f,
  0x9e, 0x2a, 0x40, 0xbf, 0x25, 0xe5, 0x9b, 0x3e, 0x41, 0x25, 0x32, 0x3f,
  0x45, 0x9e, 0x98, 0x3e, 0x8f, 0xae, 0x24, 0xbf, 0xa0, 0x08, 0x1d, 0x3f,
  0x49, 0x59, 0xbc, 0x84, 0x6a, 0xae, 0xdc, 0x84, 0x3a, 0x1a, 0x93, 0x04,
  0x7c, 0xab, 0x2e, 0x3e, 0x22, 0x12, 0x2c, 0xbf, 0x46, 0x09, 0x30, 0x3f,
  0xb4, 0x79, 0xc3, 0x86, 0xc0, 0x10, 0x58, 0x04, 0xad, 0xa1, 0xc5, 0x04,
  0x8a, 0xf8, 0xe0, 0x84, 0xcf, 0x3f, 0xe9, 0x04, 0x18, 0xce, 0xd5, 0x83,
  0xc7, 0x06, 0x19, 0x3f, 0xad, 0x19, 0xee, 0x3e, 0x25, 0x2d, 0xab, 0xbe,
  0xd7, 0xf9, 0x49, 0x3f, 0xb4, 0xce, 0x00, 0xbd, 0xa8, 0x20, 0x9b, 0xbd,
  0xef, 0x01, 0x76, 0xbf, 0xae, 0xe7, 0x70, 0x3f, 0xcc, 0xfe, 0xaa, 0xbc,
  0xac, 0xc5, 0x35, 0x3f, 0xf7, 0x1e, 0x0f, 0x3f, 0xed, 0x3c, 0x15, 0xbf,
  0x97, 0x35, 0x89, 0x04, 0xfd, 0x84, 0x2b, 0x04, 0x84, 0xf9, 0xa8, 0x03,
  0xb8, 0xf8, 0x8f, 0xbd, 0xb4, 0xdb, 0x65, 0x3f, 0xc8, 0xc9, 0xdd, 0xbe,
  0x56, 0xe6, 0xf0, 0x3e, 0x6e, 0xce, 0x4c, 0x3f, 0xf3, 0x53, 0xeb, 0x3e,
  0xe1, 0xde, 0x84, 0x96, 0x40, 0x96, 0x1a, 0x39, 0x4d, 0x8a, 0xcc, 0x04,
  0xd3, 0xf8, 0x41, 0x84, 0xc1, 0xb6, 0xc9, 0x83, 0x44, 0x9c, 0x6a, 0x8d,
  0xd5, 0x07, 0x69, 0xbf, 0x19, 0x11, 0x56, 0x3f, 0xd7, 0x9a, 0xfd, 0x3e,
  0x7e, 0x0e, 0x3b, 0xbf, 0x62, 0x30, 0xe8, 0x3e, 0xc5, 0x4c, 0x61, 0x3f,
  0x46, 0x74, 0x43, 0x3f, 0x64, 0xa6, 0x32, 0x3f, 0x74, 0xae, 0xe8, 0xbe,
  0x16, 0xfe, 0xff, 0xff, 0x04, 0x00, 0x00, 0x00, 0x24, 0x00, 0x00, 0x00,
  0xd7, 0xf6, 0x9b, 0xbf, 0xab, 0xff, 0x0f, 0x3f, 0x59, 0xcf, 0x5b, 0x3f,
  0x15, 0x4e, 0x27, 0x3f, 0x3f, 0xaf, 0x88, 0xbf, 0x40, 0x3e, 0xba, 0x3f,
  0x65, 0x2d, 0x8c, 0x3e, 0x9f, 0xc1, 0x98, 0x3f, 0x22, 0xe7, 0xa2, 0xbe,
  0x46, 0xfe, 0xff, 0xff, 0x04, 0x00, 0x00, 0x00, 0x0c, 0x00, 0x00, 0x00,
  0xb1, 0xbe, 0x4f, 0x3f, 0xb6, 0x92, 0xc2, 0x3e, 0x1a, 0x70, 0xb6, 0x3e,
  0x5e, 0xfe, 0xff, 0xff, 0x04, 0x00, 0x00, 0x00, 0x78, 0x00, 0x00, 0x00,
  0x88, 0x1b, 0xeb, 0xbe, 0xde, 0x18, 0x37, 0x3f, 0x52, 0xbb, 0x8a, 0xbd,
  0x84, 0x9b, 0x10, 0x3f, 0x33, 0xa8, 0xaa, 0x3e, 0x00, 0xb4, 0x86, 0x3e,
  0x63, 0xd0, 0xcd, 0xbe, 0x50, 0x42, 0xcb, 0xbe, 0xe0, 0xa0, 0xa9, 0x3e,
  0xc3, 0x47, 0x46, 0x3f, 0x5c, 0x70, 0xe5, 0x3c, 0x25, 0xa9, 0xef, 0xbe,
  0x6f, 0xb7, 0x0e, 0x3f, 0xee, 0x6c, 0x50, 0x3e, 0x64, 0xb8, 0x35, 0xbc,
  0xe3, 0x70, 0x3a, 0x3f, 0xc0, 0x3c, 0xe8, 0xbc, 0xa1, 0x21, 0x3b, 0xbb,
  0xc1, 0x34, 0xc8, 0x3e, 0x1c, 0x31, 0xbd, 0x3d, 0x95, 0xec, 0x3b, 0x3f,
  0xa7, 0x42, 0x38, 0xbe, 0x94, 0x06, 0x0a, 0xbc, 0x37, 0xc4, 0x21, 0x3f,
  0x8b, 0x9c, 0xca, 0x3e, 0xb1, 0xe4, 0xd3, 0xbc, 0xf9, 0x9b, 0x6f, 0xae,
  0xcb, 0x0c, 0x7f, 0x3e, 0x94, 0x6a, 0x84, 0x3e, 0x71, 0xbe, 0xf8, 0x3e,
  0xe2, 0xfe, 0xff, 0xff, 0x04, 0x00, 0x00, 0x00, 0x40, 0x00, 0x00, 0x00,
  0x68, 0x70, 0x55, 0x3f, 0xda, 0xe0, 0xb3, 0x3d, 0xfd, 0xe1, 0x27, 0xbe,
  0x28, 0x99, 0x6b, 0xbd, 0xfb, 0x79, 0x92, 0xbd, 0xfd, 0x9f, 0x0b, 0xbf,
  0xf9, 0xdb, 0xbf, 0x3e, 0x73, 0x09, 0x33, 0x3f, 0x2b, 0x4a, 0xfa, 0xbc,
  0x8a, 0x4b, 0xa8, 0xbc, 0x73, 0x26, 0x1d, 0xbd, 0x4b, 0x0a, 0xb6, 0x3d,
  0x79, 0x01, 0xeb, 0xbe, 0xba, 0x80, 0x9b, 0xbe, 0xb6, 0xc0, 0xdd, 0xbc,
  0xda, 0xbc, 0x76, 0x3e, 0x2e, 0xff, 0xff, 0xff, 0x04, 0x00, 0x00, 0x00,
  0x2c, 0x00, 0x00, 0x00, 0x42, 0x85, 0x86, 0x3e, 0x97, 0xdf, 0x9c, 0xbe,
  0x5c, 0xc4, 0x57, 0x3f, 0xb6, 0x5e, 0x88, 0x3e, 0x5b, 0xc1, 0x83, 0x3d,
  0x11, 0x14, 0x14, 0xbe, 0xfa, 0xfb, 0x13, 0xbf, 0xde, 0x03, 0x0c, 0xbd,
  0x22, 0xe0, 0xf2, 0x3d, 0x2c, 0xe1, 0x8f, 0xbe, 0x14, 0x9f, 0x07, 0xbf,
  0xa4, 0xf8, 0xff, 0xff, 0xa8, 0xf8, 0xff, 0xff, 0x0f, 0x00, 0x00, 0x00,
  0x4d, 0x4c, 0x49, 0x52, 0x20, 0x43, 0x6f, 0x6e, 0x76, 0x65, 0x72, 0x74,
  0x65, 0x64, 0x2e, 0x00, 0x01, 0x00, 0x00, 0x00, 0x14, 0x00, 0x00, 0x00,
  0x00, 0x00, 0x0e, 0x00, 0x18, 0x00, 0x14, 0x00, 0x10, 0x00, 0x0c, 0x00,
  0x08, 0x00, 0x04, 0x00, 0x0e, 0x00, 0x00, 0x00, 0x14, 0x00, 0x00, 0x00,
  0x1c, 0x00, 0x00, 0x00, 0x5c, 0x01, 0x00, 0x00, 0x60, 0x01, 0x00, 0x00,
  0x64, 0x01, 0x00, 0x00, 0x04, 0x00, 0x00, 0x00, 0x6d, 0x61, 0x69, 0x6e,
  0x00, 0x00, 0x00, 0x00, 0x05, 0x00, 0x00, 0x00, 0x04, 0x01, 0x00, 0x00,
  0xbc, 0x00, 0x00, 0x00, 0x84, 0x00, 0x00, 0x00, 0x50, 0x00, 0x00, 0x00,
  0x14, 0x00, 0x00, 0x00, 0x00, 0x00, 0x0e, 0x00, 0x1a, 0x00, 0x14, 0x00,
  0x10, 0x00, 0x0c, 0x00, 0x0b, 0x00, 0x04, 0x00, 0x0e, 0x00, 0x00, 0x00,
  0x1c, 0x00, 0x00, 0x00, 0x00, 0x00, 0x00, 0x09, 0x1c, 0x00, 0x00, 0x00,
  0x20, 0x00, 0x00, 0x00, 0x01, 0x00, 0x00, 0x00, 0x00, 0x00, 0x06, 0x00,
  0x08, 0x00, 0x04, 0x00, 0x06, 0x00, 0x00, 0x00, 0x00, 0x00, 0x80, 0x3f,
  0x01, 0x00, 0x00, 0x00, 0x0d, 0x00, 0x00, 0x00, 0x01, 0x00, 0x00, 0x00,
  0x0c, 0x00, 0x00, 0x00, 0x66, 0xff, 0xff, 0xff, 0x10, 0x00, 0x00, 0x00,
  0x00, 0x00, 0x00, 0x08, 0x0c, 0x00, 0x00, 0x00, 0x10, 0x00, 0x00, 0x00,
  0x70, 0xf9, 0xff, 0xff, 0x01, 0x00, 0x00, 0x00, 0x0c, 0x00, 0x00, 0x00,
  0x03, 0x00, 0x00, 0x00, 0x0b, 0x00, 0x00, 0x00, 0x08, 0x00, 0x00, 0x00,
  0x01, 0x00, 0x00, 0x00, 0x96, 0xff, 0xff, 0xff, 0x10, 0x00, 0x00, 0x00,
  0x00, 0x00, 0x00, 0x08, 0x10, 0x00, 0x00, 0x00, 0x14, 0x00, 0x00, 0x00,
  0x86, 0xff, 0xff, 0xff, 0x00, 0x00, 0x00, 0x01, 0x01, 0x00, 0x00, 0x00,
  0x0b, 0x00, 0x00, 0x00, 0x03, 0x00, 0x00, 0x00, 0x0a, 0x00, 0x00, 0x00,
  0x07, 0x00, 0x00, 0x00, 0x02, 0x00, 0x00, 0x00, 0xca, 0xff, 0xff, 0xff,
  0x10, 0x00, 0x00, 0x00, 0x00, 0x00, 0x00, 0x08, 0x10, 0x00, 0x00, 0x00,
  0x14, 0x00, 0x00, 0x00, 0xba, 0xff, 0xff, 0xff, 0x00, 0x00, 0x00, 0x01,
  0x01, 0x00, 0x00, 0x00, 0x0a, 0x00, 0x00, 0x00, 0x03, 0x00, 0x00, 0x00,
  0x09, 0x00, 0x00, 0x00, 0x06, 0x00, 0x00, 0x00, 0x03, 0x00, 0x00, 0x00,
  0x00, 0x00, 0x0e, 0x00, 0x16, 0x00, 0x00, 0x00, 0x10, 0x00, 0x0c, 0x00,
  0x0b, 0x00, 0x04, 0x00, 0x0e, 0x00, 0x00, 0x00, 0x18, 0x00, 0x00, 0x00,
  0x00, 0x00, 0x00, 0x08, 0x18, 0x00, 0x00, 0x00, 0x1c, 0x00, 0x00, 0x00,
  0x00, 0x00, 0x06, 0x00, 0x08, 0x00, 0x07, 0x00, 0x06, 0x00, 0x00, 0x00,
  0x00, 0x00, 0x00, 0x01, 0x01, 0x00, 0x00, 0x00, 0x09, 0x00, 0x00, 0x00,
  0x03, 0x00, 0x00, 0x00, 0x00, 0x00, 0x00, 0x00, 0x05, 0x00, 0x00, 0x00,
  0x04, 0x00, 0x00, 0x00, 0x01, 0x00, 0x00, 0x00, 0x0d, 0x00, 0x00, 0x00,
  0x01, 0x00, 0x00, 0x00, 0x00, 0x00, 0x00, 0x00, 0x0e, 0x00, 0x00, 0x00,
  0x84, 0x05, 0x00, 0x00, 0x10, 0x05, 0x00, 0x00, 0x9c, 0x04, 0x00, 0x00,
  0x40, 0x04, 0x00, 0x00, 0xe4, 0x03, 0x00, 0x00, 0x94, 0x03, 0x00, 0x00,
  0x44, 0x03, 0x00, 0x00, 0xf4, 0x02, 0x00, 0x00, 0xa4, 0x02, 0x00, 0x00,
  0x0c, 0x02, 0x00, 0x00, 0x74, 0x01, 0x00, 0x00, 0xdc, 0x00, 0x00, 0x00,
  0x60, 0x00, 0x00, 0x00, 0x04, 0x00, 0x00, 0x00, 0xca, 0xfa, 0xff, 0xff,
  0x00, 0x00, 0x00, 0x01, 0x14, 0x00, 0x00, 0x00, 0x1c, 0x00, 0x00, 0x00,
  0x1c, 0x00, 0x00, 0x00, 0x0e, 0x00, 0x00, 0x00, 0x34, 0x00, 0x00, 0x00,
  0x02, 0x00, 0x00, 0x00, 0xff, 0xff, 0xff, 0xff, 0x0b, 0x00, 0x00, 0x00,
  0xb4, 0xfa, 0xff, 0xff, 0x19, 0x00, 0x00, 0x00, 0x53, 0x74, 0x61, 0x74,
  0x65, 0x66, 0x75, 0x6c, 0x50, 0x61, 0x72, 0x74, 0x69, 0x74, 0x69, 0x6f,
  0x6e, 0x65, 0x64, 0x43, 0x61, 0x6c, 0x6c, 0x3a, 0x30, 0x00, 0x00, 0x00,
  0x02, 0x00, 0x00, 0x00, 0x01, 0x00, 0x00, 0x00, 0x0b, 0x00, 0x00, 0x00,
  0x22, 0xfb, 0xff, 0xff, 0x00, 0x00, 0x00, 0x01, 0x14, 0x00, 0x00, 0x00,
  0x1c, 0x00, 0x00, 0x00, 0x1c, 0x00, 0x00, 0x00, 0x0d, 0x00, 0x00, 0x00,
  0x54, 0x00, 0x00, 0x00, 0x02, 0x00, 0x00, 0x00, 0xff, 0xff, 0xff, 0xff,
  0x0b, 0x00, 0x00, 0x00, 0x0c, 0xfb, 0xff, 0xff, 0x3a, 0x00, 0x00, 0x00,
  0x73, 0x65, 0x71, 0x75, 0x65, 0x6e, 0x74, 0x69, 0x61, 0x6c, 0x5f, 0x33,
  0x2f, 0x64, 0x65, 0x6e, 0x73, 0x65, 0x5f, 0x31, 0x36, 0x2f, 0x4d, 0x61,
  0x74, 0x4d, 0x75, 0x6c, 0x3b, 0x73, 0x65, 0x71, 0x75, 0x65, 0x6e, 0x74,
  0x69, 0x61, 0x6c, 0x5f, 0x33, 0x2f, 0x64, 0x65, 0x6e, 0x73, 0x65, 0x5f,
  0x31, 0x36, 0x2f, 0x42, 0x69, 0x61, 0x73, 0x41, 0x64, 0x64, 0x00, 0x00,
  0x02, 0x00, 0x00, 0x00, 0x01, 0x00, 0x00, 0x00, 0x0b, 0x00, 0x00, 0x00,
  0x9a, 0xfb, 0xff, 0xff, 0x00, 0x00, 0x00, 0x01, 0x14, 0x00, 0x00, 0x00,
  0x1c, 0x00, 0x00, 0x00, 0x1c, 0x00, 0x00, 0x00, 0x0c, 0x00, 0x00, 0x00,
  0x70, 0x00, 0x00, 0x00, 0x02, 0x00, 0x00, 0x00, 0xff, 0xff, 0xff, 0xff,
  0x10, 0x00, 0x00, 0x00, 0x84, 0xfb, 0xff, 0xff, 0x55, 0x00, 0x00, 0x00,
  0x73, 0x65, 0x71, 0x75, 0x65, 0x6e, 0x74, 0x69, 0x61, 0x6c, 0x5f, 0x33,
  0x2f, 0x64, 0x65, 0x6e, 0x73, 0x65, 0x5f, 0x31, 0x35, 0x2f, 0x4d, 0x61,
  0x74, 0x4d, 0x75, 0x6c, 0x3b, 0x73, 0x65, 0x71, 0x75, 0x65, 0x6e, 0x74,
  0x69, 0x61, 0x6c, 0x5f, 0x33, 0x2f, 0x64, 0x65, 0x6e, 0x73, 0x65, 0x5f,
  0x31, 0x35, 0x2f, 0x52, 0x65, 0x6c, 0x75, 0x3b, 0x73, 0x65, 0x71, 0x75,
  0x65, 0x6e, 0x74, 0x69, 0x61, 0x6c, 0x5f, 0x33, 0x2f, 0x64, 0x65, 0x6e,
  0x73, 0x65, 0x5f, 0x31, 0x35, 0x2f, 0x42, 0x69, 0x61, 0x73, 0x41, 0x64,
  0x64, 0x00, 0x00, 0x00, 0x02, 0x00, 0x00, 0x00, 0x01, 0x00, 0x00, 0x00,
  0x10, 0x00, 0x00, 0x00, 0x2e, 0xfc, 0xff, 0xff, 0x00, 0x00, 0x00, 0x01,
  0x14, 0x00, 0x00, 0x00, 0x1c, 0x00, 0x00, 0x00, 0x1c, 0x00, 0x00, 0x00,
  0x0b, 0x00, 0x00, 0x00, 0x70, 0x00, 0x00, 0x00, 0x02, 0x00, 0x00, 0x00,
  0xff, 0xff, 0xff, 0xff, 0x1e, 0x00, 0x00, 0x00, 0x18, 0xfc, 0xff, 0xff,
  0x55, 0x00, 0x00, 0x00, 0x73, 0x65, 0x71, 0x75, 0x65, 0x6e, 0x74, 0x69,
  0x61, 0x6c, 0x5f, 0x33, 0x2f, 0x64, 0x65, 0x6e, 0x73, 0x65, 0x5f, 0x31,
  0x34, 0x2f, 0x4d, 0x61, 0x74, 0x4d, 0x75, 0x6c, 0x3b, 0x73, 0x65, 0x71,
  0x75, 0x65, 0x6e, 0x74, 0x69, 0x61, 0x6c, 0x5f, 0x33, 0x2f, 0x64, 0x65,
  0x6e, 0x73, 0x65, 0x5f, 0x31, 0x34, 0x2f, 0x52, 0x65, 0x6c, 0x75, 0x3b,
  0x73, 0x65, 0x71, 0x75, 0x65, 0x6e, 0x74, 0x69, 0x61, 0x6c, 0x5f, 0x33,
  0x2f, 0x64, 0x65, 0x6e, 0x73, 0x65, 0x5f, 0x31, 0x34, 0x2f, 0x42, 0x69,
  0x61, 0x73, 0x41, 0x64, 0x64, 0x00, 0x00, 0x00, 0x02, 0x00, 0x00, 0x00,
  0x01, 0x00, 0x00, 0x00, 0x1e, 0x00, 0x00, 0x00, 0xc2, 0xfc, 0xff, 0xff,
  0x00, 0x00, 0x00, 0x01, 0x14, 0x00, 0x00, 0x00, 0x1c, 0x00, 0x00, 0x00,
  0x1c, 0x00, 0x00, 0x00, 0x0a, 0x00, 0x00, 0x00, 0x70, 0x00, 0x00, 0x00,
  0x02, 0x00, 0x00, 0x00, 0xff, 0xff, 0xff, 0xff, 0x03, 0x00, 0x00, 0x00,
  0xac, 0xfc, 0xff, 0xff, 0x55, 0x00, 0x00, 0x00, 0x73, 0x65, 0x71, 0x75,
  0x65, 0x6e, 0x74, 0x69, 0x61, 0x6c, 0x5f, 0x33, 0x2f, 0x64, 0x65, 0x6e,
  0x73, 0x65, 0x5f, 0x31, 0x33, 0x2f, 0x4d, 0x61, 0x74, 0x4d, 0x75, 0x6c,
  0x3b, 0x73, 0x65, 0x71, 0x75, 0x65, 0x6e, 0x74, 0x69, 0x61, 0x6c, 0x5f,
  0x33, 0x2f, 0x64, 0x65, 0x6e, 0x73, 0x65, 0x5f, 0x31, 0x33, 0x2f, 0x52,
  0x65, 0x6c, 0x75, 0x3b, 0x73, 0x65, 0x71, 0x75, 0x65, 0x6e, 0x74, 0x69,
  0x61, 0x6c, 0x5f, 0x33, 0x2f, 0x64, 0x65, 0x6e, 0x73, 0x65, 0x5f, 0x31,
  0x33, 0x2f, 0x42, 0x69, 0x61, 0x73, 0x41, 0x64, 0x64, 0x00, 0x00, 0x00,
  0x02, 0x00, 0x00, 0x00, 0x01, 0x00, 0x00, 0x00, 0x03, 0x00, 0x00, 0x00,
  0xc6, 0xfd, 0xff, 0xff, 0x00, 0x00, 0x00, 0x01, 0x10, 0x00, 0x00, 0x00,
  0x10, 0x00, 0x00, 0x00, 0x09, 0x00, 0x00, 0x00, 0x2c, 0x00, 0x00, 0x00,
  0x30, 0xfd, 0xff, 0xff, 0x1c, 0x00, 0x00, 0x00, 0x73, 0x65, 0x71, 0x75,
  0x65, 0x6e, 0x74, 0x69, 0x61, 0x6c, 0x5f, 0x33, 0x2f, 0x64, 0x65, 0x6e,
  0x73, 0x65, 0x5f, 0x31, 0x36, 0x2f, 0x4d, 0x61, 0x74, 0x4d, 0x75, 0x6c,
  0x00, 0x00, 0x00, 0x00, 0x02, 0x00, 0x00, 0x00, 0x0b, 0x00, 0x00, 0x00,
  0x10, 0x00, 0x00, 0x00, 0x12, 0xfe, 0xff, 0xff, 0x00, 0x00, 0x00, 0x01,
  0x10, 0x00, 0x00, 0x00, 0x10, 0x00, 0x00, 0x00, 0x08, 0x00, 0x00, 0x00,
  0x2c, 0x00, 0x00, 0x00, 0x7c, 0xfd, 0xff, 0xff, 0x1c, 0x00, 0x00, 0x00,
  0x73, 0x65, 0x71, 0x75, 0x65, 0x6e, 0x74, 0x69, 0x61, 0x6c, 0x5f, 0x33,
  0x2f, 0x64, 0x65, 0x6e, 0x73, 0x65, 0x5f, 0x31, 0x35, 0x2f, 0x4d, 0x61,
  0x74, 0x4d, 0x75, 0x6c, 0x00, 0x00, 0x00, 0x00, 0x02, 0x00, 0x00, 0x00,
  0x10, 0x00, 0x00, 0x00, 0x1e, 0x00, 0x00, 0x00, 0x5e, 0xfe, 0xff, 0xff,
  0x00, 0x00, 0x00, 0x01, 0x10, 0x00, 0x00, 0x00, 0x10, 0x00, 0x00, 0x00,
  0x07, 0x00, 0x00, 0x00, 0x2c, 0x00, 0x00, 0x00, 0xc8, 0xfd, 0xff, 0xff,
  0x1c, 0x00, 0x00, 0x00, 0x73, 0x65, 0x71, 0x75, 0x65, 0x6e, 0x74, 0x69,
  0x61, 0x6c, 0x5f, 0x33, 0x2f, 0x64, 0x65, 0x6e, 0x73, 0x65, 0x5f, 0x31,
  0x34, 0x2f, 0x4d, 0x61, 0x74, 0x4d, 0x75, 0x6c, 0x00, 0x00, 0x00, 0x00,
  0x02, 0x00, 0x00, 0x00, 0x1e, 0x00, 0x00, 0x00, 0x03, 0x00, 0x00, 0x00,
  0xaa, 0xfe, 0xff, 0xff, 0x00, 0x00, 0x00, 0x01, 0x10, 0x00, 0x00, 0x00,
  0x10, 0x00, 0x00, 0x00, 0x06, 0x00, 0x00, 0x00, 0x2c, 0x00, 0x00, 0x00,
  0x14, 0xfe, 0xff, 0xff, 0x1c, 0x00, 0x00, 0x00, 0x73, 0x65, 0x71, 0x75,
  0x65, 0x6e, 0x74, 0x69, 0x61, 0x6c, 0x5f, 0x33, 0x2f, 0x64, 0x65, 0x6e,
  0x73, 0x65, 0x5f, 0x31, 0x33, 0x2f, 0x4d, 0x61, 0x74, 0x4d, 0x75, 0x6c,
  0x00, 0x00, 0x00, 0x00, 0x02, 0x00, 0x00, 0x00, 0x03, 0x00, 0x00, 0x00,
  0x03, 0x00, 0x00, 0x00, 0xf6, 0xfe, 0xff, 0xff, 0x00, 0x00, 0x00, 0x01,
  0x10, 0x00, 0x00, 0x00, 0x10, 0x00, 0x00, 0x00, 0x05, 0x00, 0x00, 0x00,
  0x3c, 0x00, 0x00, 0x00, 0x60, 0xfe, 0xff, 0xff, 0x2c, 0x00, 0x00, 0x00,
  0x73, 0x65, 0x71, 0x75, 0x65, 0x6e, 0x74, 0x69, 0x61, 0x6c, 0x5f, 0x33,
  0x2f, 0x64, 0x65, 0x6e, 0x73, 0x65, 0x5f, 0x31, 0x33, 0x2f, 0x42, 0x69,
  0x61, 0x73, 0x41, 0x64, 0x64, 0x2f, 0x52, 0x65, 0x61, 0x64, 0x56, 0x61,
  0x72, 0x69, 0x61, 0x62, 0x6c, 0x65, 0x4f, 0x70, 0x00, 0x00, 0x00, 0x00,
  0x01, 0x00, 0x00, 0x00, 0x03, 0x00, 0x00, 0x00, 0x4e, 0xff, 0xff, 0xff,
  0x00, 0x00, 0x00, 0x01, 0x10, 0x00, 0x00, 0x00, 0x10, 0x00, 0x00, 0x00,
  0x04, 0x00, 0x00, 0x00, 0x3c, 0x00, 0x00, 0x00, 0xb8, 0xfe, 0xff, 0xff,
  0x2c, 0x00, 0x00, 0x00, 0x73, 0x65, 0x71, 0x75, 0x65, 0x6e, 0x74, 0x69,
  0x61, 0x6c, 0x5f, 0x33, 0x2f, 0x64, 0x65, 0x6e, 0x73, 0x65, 0x5f, 0x31,
  0x34, 0x2f, 0x42, 0x69, 0x61, 0x73, 0x41, 0x64, 0x64, 0x2f, 0x52, 0x65,
  0x61, 0x64, 0x56, 0x61, 0x72, 0x69, 0x61, 0x62, 0x6c, 0x65, 0x4f, 0x70,
  0x00, 0x00, 0x00, 0x00, 0x01, 0x00, 0x00, 0x00, 0x1e, 0x00, 0x00, 0x00,
  0xa6, 0xff, 0xff, 0xff, 0x00, 0x00, 0x00, 0x01, 0x10, 0x00, 0x00, 0x00,
  0x10, 0x00, 0x00, 0x00, 0x03, 0x00, 0x00, 0x00, 0x3c, 0x00, 0x00, 0x00,
  0x10, 0xff, 0xff, 0xff, 0x2c, 0x00, 0x00, 0x00, 0x73, 0x65, 0x71, 0x75,
  0x65, 0x6e, 0x74, 0x69, 0x61, 0x6c, 0x5f, 0x33, 0x2f, 0x64, 0x65, 0x6e,
  0x73, 0x65, 0x5f, 0x31, 0x35, 0x2f, 0x42, 0x69, 0x61, 0x73, 0x41, 0x64,
  0x64, 0x2f, 0x52, 0x65, 0x61, 0x64, 0x56, 0x61, 0x72, 0x69, 0x61, 0x62,
  0x6c, 0x65, 0x4f, 0x70, 0x00, 0x00, 0x00, 0x00, 0x01, 0x00, 0x00, 0x00,
  0x10, 0x00, 0x00, 0x00, 0x00, 0x00, 0x16, 0x00, 0x18, 0x00, 0x14, 0x00,
  0x00, 0x00, 0x10, 0x00, 0x0c, 0x00, 0x08, 0x00, 0x00, 0x00, 0x00, 0x00,
  0x00, 0x00, 0x07, 0x00, 0x16, 0x00, 0x00, 0x00, 0x00, 0x00, 0x00, 0x01,
  0x10, 0x00, 0x00, 0x00, 0x10, 0x00, 0x00, 0x00, 0x02, 0x00, 0x00, 0x00,
  0x3c, 0x00, 0x00, 0x00, 0x80, 0xff, 0xff, 0xff, 0x2c, 0x00, 0x00, 0x00,
  0x73, 0x65, 0x71, 0x75, 0x65, 0x6e, 0x74, 0x69, 0x61, 0x6c, 0x5f, 0x33,
  0x2f, 0x64, 0x65, 0x6e, 0x73, 0x65, 0x5f, 0x31, 0x36, 0x2f, 0x42, 0x69,
  0x61, 0x73, 0x41, 0x64, 0x64, 0x2f, 0x52, 0x65, 0x61, 0x64, 0x56, 0x61,
  0x72, 0x69, 0x61, 0x62, 0x6c, 0x65, 0x4f, 0x70, 0x00, 0x00, 0x00, 0x00,
  0x01, 0x00, 0x00, 0x00, 0x0b, 0x00, 0x00, 0x00, 0x00, 0x00, 0x16, 0x00,
  0x1c, 0x00, 0x18, 0x00, 0x00, 0x00, 0x14, 0x00, 0x10, 0x00, 0x0c, 0x00,
  0x00, 0x00, 0x00, 0x00, 0x08, 0x00, 0x07, 0x00, 0x16, 0x00, 0x00, 0x00,
  0x00, 0x00, 0x00, 0x01, 0x14, 0x00, 0x00, 0x00, 0x20, 0x00, 0x00, 0x00,
  0x20, 0x00, 0x00, 0x00, 0x01, 0x00, 0x00, 0x00, 0x40, 0x00, 0x00, 0x00,
  0x02, 0x00, 0x00, 0x00, 0xff, 0xff, 0xff, 0xff, 0x03, 0x00, 0x00, 0x00,
  0x04, 0x00, 0x04, 0x00, 0x04, 0x00, 0x00, 0x00, 0x20, 0x00, 0x00, 0x00,
  0x73, 0x65, 0x72, 0x76, 0x69, 0x6e, 0x67, 0x5f, 0x64, 0x65, 0x66, 0x61,
  0x75, 0x6c, 0x74, 0x5f, 0x64, 0x65, 0x6e, 0x73, 0x65, 0x5f, 0x31, 0x33,
  0x5f, 0x69, 0x6e, 0x70, 0x75, 0x74, 0x3a, 0x30, 0x00, 0x00, 0x00, 0x00,
  0x02, 0x00, 0x00, 0x00, 0x01, 0x00, 0x00, 0x00, 0x03, 0x00, 0x00, 0x00,
  0x02, 0x00, 0x00, 0x00, 0x20, 0x00, 0x00, 0x00, 0x04, 0x00, 0x00, 0x00,
  0xf4, 0xff, 0xff, 0xff, 0x19, 0x00, 0x00, 0x00, 0x00, 0x00, 0x00, 0x19,
  0x0c, 0x00, 0x0c, 0x00, 0x0b, 0x00, 0x00, 0x00, 0x00, 0x00, 0x04, 0x00,
  0x0c, 0x00, 0x00, 0x00, 0x09, 0x00, 0x00, 0x00, 0x00, 0x00, 0x00, 0x09
};
unsigned int models_model_no_quant_tflite_len = 5844;
